#ifndef SRI_H
#define SRI_H


unsigned int SRI_len = 3040;
unsigned char SRI[] = {
 0x20, 0x00, 0x00, 0x00, 0x54, 0x46, 0x4c, 0x33, 0x00, 0x00, 0x00, 0x00,
  0x14, 0x00, 0x20, 0x00, 0x04, 0x00, 0x08, 0x00, 0x0c, 0x00, 0x10, 0x00,
  0x14, 0x00, 0x00, 0x00, 0x18, 0x00, 0x1c, 0x00, 0x14, 0x00, 0x00, 0x00,
  0x03, 0x00, 0x00, 0x00, 0x94, 0x0b, 0x00, 0x00, 0xf4, 0x06, 0x00, 0x00,
  0xdc, 0x06, 0x00, 0x00, 0xbc, 0x00, 0x00, 0x00, 0x84, 0x00, 0x00, 0x00,
  0x04, 0x00, 0x00, 0x00, 0x01, 0x00, 0x00, 0x00, 0x10, 0x00, 0x00, 0x00,
  0x00, 0x00, 0x0a, 0x00, 0x10, 0x00, 0x04, 0x00, 0x08, 0x00, 0x0c, 0x00,
  0x0a, 0x00, 0x00, 0x00, 0x40, 0x00, 0x00, 0x00, 0x1c, 0x00, 0x00, 0x00,
  0x04, 0x00, 0x00, 0x00, 0x0f, 0x00, 0x00, 0x00, 0x73, 0x65, 0x72, 0x76,
  0x69, 0x6e, 0x67, 0x5f, 0x64, 0x65, 0x66, 0x61, 0x75, 0x6c, 0x74, 0x00,
  0x01, 0x00, 0x00, 0x00, 0x04, 0x00, 0x00, 0x00, 0xbc, 0xff, 0xff, 0xff,
  0x08, 0x00, 0x00, 0x00, 0x09, 0x00, 0x00, 0x00, 0x07, 0x00, 0x00, 0x00,
  0x64, 0x65, 0x6e, 0x73, 0x65, 0x5f, 0x35, 0x00, 0x01, 0x00, 0x00, 0x00,
  0x04, 0x00, 0x00, 0x00, 0xd2, 0xf9, 0xff, 0xff, 0x04, 0x00, 0x00, 0x00,
  0x0d, 0x00, 0x00, 0x00, 0x64, 0x65, 0x6e, 0x73, 0x65, 0x5f, 0x33, 0x5f,
  0x69, 0x6e, 0x70, 0x75, 0x74, 0x00, 0x00, 0x00, 0x01, 0x00, 0x00, 0x00,
  0x0c, 0x00, 0x00, 0x00, 0x08, 0x00, 0x0c, 0x00, 0x04, 0x00, 0x08, 0x00,
  0x08, 0x00, 0x00, 0x00, 0x08, 0x00, 0x00, 0x00, 0x0b, 0x00, 0x00, 0x00,
  0x13, 0x00, 0x00, 0x00, 0x6d, 0x69, 0x6e, 0x5f, 0x72, 0x75, 0x6e, 0x74,
  0x69, 0x6d, 0x65, 0x5f, 0x76, 0x65, 0x72, 0x73, 0x69, 0x6f, 0x6e, 0x00,
  0x0c, 0x00, 0x00, 0x00, 0x08, 0x06, 0x00, 0x00, 0xf4, 0x05, 0x00, 0x00,
  0xd8, 0x05, 0x00, 0x00, 0x74, 0x05, 0x00, 0x00, 0x20, 0x05, 0x00, 0x00,
  0xcc, 0x04, 0x00, 0x00, 0xb8, 0x00, 0x00, 0x00, 0x64, 0x00, 0x00, 0x00,
  0x58, 0x00, 0x00, 0x00, 0x44, 0x00, 0x00, 0x00, 0x30, 0x00, 0x00, 0x00,
  0x04, 0x00, 0x00, 0x00, 0x56, 0xfa, 0xff, 0xff, 0x04, 0x00, 0x00, 0x00,
  0x10, 0x00, 0x00, 0x00, 0x31, 0x2e, 0x35, 0x2e, 0x30, 0x00, 0x00, 0x00,
  0x00, 0x00, 0x00, 0x00, 0x00, 0x00, 0x00, 0x00, 0x00, 0x00, 0x00, 0x00,
  0x00, 0x00, 0x00, 0x00, 0x00, 0x00, 0x00, 0x00, 0xc8, 0xf5, 0xff, 0xff,
  0x00, 0x00, 0x00, 0x00, 0x00, 0x00, 0x00, 0x00, 0x00, 0x00, 0x00, 0x00,
  0xd8, 0xf5, 0xff, 0xff, 0x00, 0x00, 0x00, 0x00, 0x00, 0x00, 0x00, 0x00,
  0x00, 0x00, 0x00, 0x00, 0xe8, 0xf5, 0xff, 0xff, 0x00, 0x00, 0x00, 0x00,
  0xa6, 0xfa, 0xff, 0xff, 0x04, 0x00, 0x00, 0x00, 0x40, 0x00, 0x00, 0x00,
  0x4d, 0xcb, 0x7e, 0xbe, 0xf9, 0xa9, 0x87, 0xbe, 0x10, 0xea, 0x4f, 0xbe,
  0xbe, 0x19, 0x9e, 0xbe, 0x41, 0xe6, 0x8d, 0x3f, 0x57, 0x19, 0xcb, 0x3f,
  0xe7, 0x84, 0x15, 0xbd, 0x4f, 0xd2, 0x9b, 0x3f, 0x4a, 0x6b, 0xd8, 0xbe,
  0xbd, 0x0b, 0x04, 0xbd, 0x0f, 0x27, 0x9b, 0x3f, 0x40, 0x5e, 0xa3, 0x3f,
  0x6c, 0xa9, 0xa7, 0x3f, 0xa3, 0x3e, 0x9c, 0x3f, 0x80, 0x9c, 0xc0, 0x3f,
  0x10, 0x67, 0xb2, 0xbd, 0x00, 0x00, 0x00, 0x00, 0xf6, 0xfa, 0xff, 0xff,
  0x04, 0x00, 0x00, 0x00, 0x00, 0x04, 0x00, 0x00, 0x88, 0x80, 0x2c, 0xbe,
  0xef, 0x74, 0x14, 0x3e, 0x27, 0xa0, 0x9c, 0x3e, 0xf7, 0x95, 0xa5, 0x3d,
  0x70, 0xdf, 0x26, 0xbe, 0x1f, 0x48, 0xa6, 0x3e, 0xf0, 0x58, 0xa8, 0xbd,
  0x13, 0x4a, 0xb4, 0xbe, 0x5f, 0xc1, 0x86, 0xbe, 0x89, 0x7d, 0xea, 0x3d,
  0x2c, 0xd9, 0xb7, 0xbd, 0x23, 0x90, 0x76, 0xbe, 0xf0, 0xf4, 0x1f, 0xbd,
  0x12, 0x7f, 0x8a, 0xbe, 0x20, 0x06, 0xea, 0x3c, 0xcf, 0x43, 0xb2, 0xbe,
  0xa4, 0xc3, 0x94, 0xbe, 0x43, 0xef, 0x51, 0xbe, 0x14, 0x61, 0xa3, 0xbd,
  0x0c, 0xaf, 0xb3, 0x3d, 0x31, 0xa6, 0xd6, 0xbe, 0x92, 0xf7, 0x75, 0xbe,
  0xcc, 0xc6, 0x8c, 0xbe, 0x54, 0xe5, 0x80, 0xbe, 0x21, 0x62, 0x8b, 0x3e,
  0xa0, 0xff, 0xd5, 0xbd, 0xf1, 0xe6, 0x84, 0x3e, 0xda, 0x24, 0x45, 0x3e,
  0x66, 0x91, 0x69, 0xbe, 0xa2, 0xc2, 0x68, 0xbe, 0xce, 0x07, 0x43, 0x3e,
  0xa4, 0x1d, 0xbd, 0x3d, 0xf7, 0xfc, 0x97, 0xbe, 0x1a, 0xdd, 0xb6, 0xbd,
  0x9a, 0x20, 0x43, 0xbe, 0x0a, 0x47, 0xcc, 0xbe, 0x02, 0x98, 0x33, 0x3e,
  0xd0, 0x18, 0x64, 0xbd, 0x95, 0x75, 0x19, 0xbd, 0xf9, 0x0c, 0x0f, 0x3e,
  0xd8, 0x96, 0x50, 0x3e, 0x35, 0xe0, 0xaf, 0xbe, 0xed, 0x92, 0xac, 0x3e,
  0x0f, 0x0d, 0x80, 0x3e, 0x4b, 0xb2, 0x54, 0x3d, 0x12, 0x3e, 0xdc, 0xbe,
  0x9b, 0x23, 0x8e, 0x3e, 0x14, 0x2e, 0xdf, 0xbd, 0xba, 0xa0, 0x3d, 0xbe,
  0xc5, 0x20, 0x43, 0xbe, 0x18, 0xb6, 0xad, 0xbe, 0xcc, 0xa6, 0xce, 0xbe,
  0x6f, 0x18, 0x07, 0xbe, 0x81, 0x7c, 0x42, 0xbe, 0x45, 0x53, 0x8d, 0xbe,
  0x27, 0xa5, 0x93, 0xbe, 0x3f, 0x5a, 0xd5, 0x3e, 0x82, 0xec, 0x93, 0xbe,
  0x13, 0x92, 0xc5, 0xbe, 0x16, 0xa6, 0x4f, 0x3e, 0xf9, 0x42, 0x6f, 0xbe,
  0x3a, 0x2a, 0x7b, 0x3e, 0x4c, 0xe9, 0xcb, 0xbd, 0x91, 0xb3, 0xc6, 0x3e,
  0x1a, 0xd3, 0xa8, 0x3f, 0x6e, 0xf2, 0x46, 0x3f, 0x53, 0x8d, 0x55, 0x3f,
  0xd0, 0x5e, 0x0f, 0xbd, 0x3f, 0x41, 0x9d, 0x3f, 0x2a, 0x1f, 0xb1, 0x3f,
  0x46, 0x72, 0x9b, 0x3f, 0xaa, 0xf7, 0x3d, 0x3f, 0xd2, 0x82, 0xb8, 0x3f,
  0xbd, 0x13, 0x41, 0x3f, 0xd9, 0x21, 0x48, 0x3f, 0x3a, 0x4f, 0x83, 0x3f,
  0x35, 0x4c, 0x5d, 0x3e, 0x5a, 0xe0, 0x1a, 0x3f, 0x66, 0xc6, 0x5c, 0x3f,
  0x0f, 0xe9, 0x67, 0x3f, 0x8a, 0xbd, 0x9a, 0x3f, 0xa2, 0xc2, 0x32, 0x3f,
  0x92, 0xfb, 0x9e, 0x3f, 0x0f, 0xe3, 0xc2, 0x3e, 0xfc, 0x7c, 0xae, 0x3f,
  0xde, 0xe2, 0xad, 0x3f, 0x5e, 0xa7, 0xa3, 0x3f, 0x06, 0x0f, 0x8d, 0x3f,
  0xf8, 0x3f, 0xa9, 0x3f, 0x79, 0xf7, 0x22, 0x3f, 0x99, 0x82, 0x1a, 0x3f,
  0xd8, 0xa4, 0x82, 0x3f, 0x50, 0x74, 0xae, 0xbe, 0x1b, 0x73, 0x93, 0x3f,
  0x39, 0x42, 0x62, 0x3f, 0x67, 0x9a, 0xb8, 0x3f, 0x18, 0x5d, 0x0f, 0x3c,
  0x70, 0x86, 0xa2, 0x3c, 0x3e, 0x85, 0xcc, 0xbe, 0x11, 0xbd, 0xd2, 0x3e,
  0x4f, 0xe2, 0x52, 0x3e, 0xc8, 0x23, 0xb6, 0x3e, 0x14, 0x2a, 0xe7, 0x3c,
  0x38, 0x91, 0x1f, 0x3d, 0x00, 0x31, 0xe6, 0xbe, 0x29, 0x10, 0x8d, 0x3e,
  0x7e, 0x55, 0x30, 0x3e, 0xa8, 0x10, 0xec, 0xbd, 0x39, 0x0c, 0xfc, 0xbd,
  0x76, 0x53, 0xfd, 0xbe, 0x88, 0x9b, 0x68, 0x3d, 0x3e, 0x3a, 0x5a, 0x3e,
  0xe2, 0x4c, 0x63, 0x3f, 0xae, 0x4a, 0x90, 0x3f, 0x8f, 0xb0, 0x30, 0x3f,
  0x26, 0x0e, 0x88, 0xbe, 0x59, 0xca, 0xa0, 0x3f, 0x0e, 0xa0, 0x98, 0x3f,
  0xa5, 0xa4, 0x46, 0x3f, 0x0e, 0x57, 0xad, 0x3f, 0x5d, 0xb9, 0xa2, 0x3f,
  0x88, 0x80, 0x70, 0x3f, 0xa0, 0x67, 0x5d, 0x3f, 0x97, 0x6f, 0x7a, 0x3f,
  0x7c, 0xa8, 0x9b, 0x3d, 0xb0, 0xd6, 0x9a, 0x3f, 0x69, 0x97, 0x9a, 0x3f,
  0x36, 0x3d, 0x27, 0x3f, 0x04, 0xf3, 0xa8, 0xbe, 0x72, 0x81, 0xac, 0xbd,
  0x27, 0x07, 0x56, 0x3e, 0x2d, 0x45, 0x8e, 0xbd, 0x4e, 0x30, 0xb3, 0x3e,
  0xae, 0xd0, 0xae, 0xbe, 0x1b, 0xec, 0x37, 0x3e, 0x42, 0x56, 0x1d, 0xbe,
  0xb2, 0xe5, 0x93, 0x3b, 0x0a, 0x56, 0x86, 0xbe, 0x2a, 0x6a, 0xa2, 0x3e,
  0xa1, 0x63, 0x58, 0x3e, 0xab, 0x0e, 0x94, 0x3e, 0x46, 0x32, 0xa5, 0x3c,
  0x0c, 0xa6, 0xa8, 0xbe, 0xb8, 0x87, 0xf3, 0xbc, 0x12, 0x64, 0x20, 0x3e,
  0xaa, 0x32, 0x70, 0xbe, 0xfb, 0xb8, 0xae, 0xbe, 0x15, 0x44, 0xbe, 0xbe,
  0x10, 0x84, 0x3e, 0x3e, 0x29, 0x97, 0x09, 0x3d, 0x65, 0xe1, 0x4d, 0xbe,
  0x71, 0x32, 0x87, 0xbc, 0xce, 0x36, 0x13, 0xbe, 0xc1, 0xf8, 0x80, 0xbe,
  0xe5, 0xa6, 0xf5, 0xbd, 0x61, 0x32, 0x2c, 0x3e, 0x01, 0xe9, 0x87, 0x3e,
  0x68, 0x45, 0x91, 0x3d, 0x04, 0xe2, 0x08, 0x3e, 0xde, 0x42, 0x9a, 0x3d,
  0x4b, 0xcf, 0x56, 0x3f, 0xa6, 0x3f, 0x3a, 0x3f, 0x88, 0xc4, 0x75, 0x3f,
  0x92, 0x9a, 0x99, 0xbe, 0xb5, 0x27, 0x8e, 0x3f, 0x66, 0x6c, 0x8b, 0x3f,
  0xa6, 0x28, 0x29, 0x3f, 0x44, 0xe1, 0x96, 0x3f, 0xf4, 0x32, 0xba, 0x3f,
  0x1a, 0xb5, 0x8c, 0x3f, 0x0b, 0x7a, 0x71, 0x3f, 0xe1, 0x4e, 0xb2, 0x3f,
  0x00, 0x64, 0x69, 0x3a, 0x15, 0xbe, 0x40, 0x3f, 0xc5, 0x21, 0xa2, 0x3f,
  0xc8, 0xcc, 0x92, 0x3f, 0x3e, 0x66, 0x85, 0x3f, 0xd2, 0x3d, 0x8f, 0x3f,
  0xfe, 0xd5, 0x48, 0x3f, 0xb0, 0x4f, 0x77, 0xbe, 0x8e, 0xd6, 0x9a, 0x3f,
  0xd7, 0x12, 0x28, 0x3f, 0x2e, 0xe9, 0xa2, 0x3f, 0x63, 0x9a, 0xb1, 0x3f,
  0x55, 0x89, 0x7b, 0x3f, 0x4b, 0xf0, 0x52, 0x3f, 0x39, 0xa0, 0x87, 0x3f,
  0x2f, 0xc2, 0x35, 0x3f, 0xf5, 0xfc, 0xa7, 0xbe, 0x4f, 0x29, 0x9e, 0x3f,
  0x46, 0x96, 0xad, 0x3f, 0x7f, 0x6f, 0xb7, 0x3f, 0xe4, 0x50, 0xb0, 0x3f,
  0xb8, 0xbe, 0x8b, 0x3f, 0xcf, 0xcd, 0x82, 0x3f, 0x1b, 0xdf, 0x99, 0xbb,
  0x7a, 0xad, 0x8a, 0x3f, 0xe4, 0x20, 0x26, 0x3f, 0xea, 0xfd, 0x74, 0x3f,
  0x5b, 0x57, 0x65, 0x3f, 0xb5, 0xc0, 0x98, 0x3f, 0x81, 0x35, 0x9b, 0x3f,
  0x12, 0xd2, 0x26, 0x3f, 0x7d, 0xca, 0x9e, 0x3f, 0x1c, 0x21, 0xd7, 0x3d,
  0x4d, 0x74, 0x97, 0x3f, 0x80, 0x2a, 0x65, 0x3f, 0x61, 0x5a, 0x3a, 0x3f,
  0xd0, 0x2b, 0x67, 0x3f, 0x0a, 0xf7, 0x29, 0x3f, 0x74, 0x21, 0x6a, 0x3f,
  0xdd, 0x04, 0xf4, 0xbd, 0xa8, 0x04, 0x8e, 0x3f, 0x24, 0x5c, 0x97, 0x3f,
  0x55, 0x5f, 0x9d, 0x3f, 0x55, 0xc4, 0xb0, 0x3f, 0xdb, 0x26, 0x6e, 0x3f,
  0x5b, 0x20, 0xa5, 0x3f, 0x95, 0x2f, 0x88, 0x3f, 0x1f, 0x3a, 0x1f, 0x3f,
  0xe6, 0x2a, 0xf1, 0x3d, 0x01, 0xd1, 0x47, 0x3f, 0xc6, 0x96, 0x8d, 0x3f,
  0x65, 0xc7, 0xbc, 0x3f, 0x4e, 0x20, 0x8c, 0x3f, 0x84, 0xc2, 0xb6, 0x3f,
  0xab, 0x19, 0x91, 0x3f, 0x58, 0x62, 0xf4, 0x3a, 0xc0, 0x22, 0xa5, 0x3f,
  0xd1, 0x38, 0x75, 0x3f, 0x22, 0xbe, 0x53, 0x3f, 0x88, 0x59, 0xb3, 0x3f,
  0x4c, 0x64, 0x8a, 0x3f, 0x18, 0x03, 0xa3, 0x3f, 0x8b, 0x6e, 0x7d, 0x3f,
  0x3f, 0x1d, 0xb8, 0x3f, 0x00, 0xd6, 0xef, 0xbd, 0x85, 0x9a, 0xa7, 0x3f,
  0x25, 0x11, 0x1e, 0x3f, 0x7a, 0x43, 0x9c, 0x3f, 0x21, 0x1f, 0x80, 0xbe,
  0x58, 0x89, 0x51, 0xbe, 0x30, 0x70, 0x12, 0x3d, 0x3c, 0xa9, 0x93, 0xbe,
  0x06, 0x9c, 0x02, 0xbe, 0x76, 0x7b, 0x34, 0x3e, 0xaa, 0xe0, 0x14, 0xbe,
  0x22, 0xe1, 0x7f, 0xbe, 0x82, 0x51, 0x9d, 0xbe, 0x10, 0x5d, 0xb1, 0xbc,
  0x3c, 0xd2, 0xfe, 0xbd, 0x88, 0x7f, 0x8e, 0xbe, 0x50, 0xe6, 0xc0, 0xbc,
  0xf9, 0xba, 0xb6, 0x3e, 0x7a, 0x20, 0x7e, 0x3e, 0xfa, 0xea, 0x69, 0x3e,
  0x00, 0x00, 0x00, 0x00, 0x06, 0xff, 0xff, 0xff, 0x04, 0x00, 0x00, 0x00,
  0x40, 0x00, 0x00, 0x00, 0x03, 0x69, 0x6f, 0x3f, 0xbb, 0x49, 0xa5, 0xbf,
  0xcd, 0xdc, 0xc2, 0xbf, 0x25, 0x19, 0xb0, 0xbc, 0x60, 0xce, 0x1c, 0x3f,
  0x3f, 0x79, 0x5e, 0x3f, 0x99, 0x53, 0x8e, 0x3f, 0xcc, 0x0c, 0x9f, 0xbf,
  0x27, 0xa0, 0x30, 0x3f, 0x80, 0x3c, 0x99, 0xbf, 0xdc, 0x59, 0x93, 0x3f,
  0x8b, 0xf7, 0x8e, 0xbf, 0x26, 0x2a, 0x8c, 0xba, 0x91, 0x23, 0x37, 0x3f,
  0x56, 0x40, 0x4a, 0x3f, 0xbe, 0x45, 0x7f, 0xbf, 0x00, 0x00, 0x00, 0x00,
  0x56, 0xff, 0xff, 0xff, 0x04, 0x00, 0x00, 0x00, 0x40, 0x00, 0x00, 0x00,
  0xb6, 0x49, 0x83, 0x3f, 0xbc, 0x62, 0x7f, 0x3f, 0xd2, 0x0d, 0x80, 0x3f,
  0x20, 0x33, 0x82, 0xbd, 0xd5, 0x2a, 0x81, 0x3f, 0x2a, 0x8c, 0x83, 0x3f,
  0x07, 0x42, 0x83, 0x3f, 0x75, 0x91, 0x83, 0x3f, 0x1e, 0x26, 0x84, 0x3f,
  0xc1, 0x58, 0x82, 0x3f, 0xd6, 0xd3, 0x4e, 0x3f, 0x54, 0xf4, 0x83, 0x3f,
  0x21, 0x3e, 0x4f, 0xbb, 0xef, 0x4d, 0x84, 0x3f, 0xca, 0xb7, 0x6c, 0x3f,
  0xa1, 0xe7, 0x83, 0x3f, 0x00, 0x00, 0x00, 0x00, 0xa6, 0xff, 0xff, 0xff,
  0x04, 0x00, 0x00, 0x00, 0x40, 0x00, 0x00, 0x00, 0x06, 0x0f, 0xa3, 0xbd,
  0x00, 0x00, 0x00, 0x00, 0xf0, 0xc1, 0xbb, 0xbd, 0xd2, 0x5b, 0x5b, 0xbc,
  0x1d, 0x51, 0x82, 0x3f, 0xef, 0x61, 0x80, 0x3f, 0x34, 0x44, 0x55, 0xbd,
  0xa7, 0x5c, 0x82, 0x3f, 0xcf, 0x05, 0x00, 0xbd, 0x97, 0x5d, 0x57, 0xbe,
  0x5c, 0x74, 0x82, 0x3f, 0x0e, 0x24, 0x81, 0x3f, 0xb1, 0xfb, 0x80, 0x3f,
  0xa1, 0x5d, 0x81, 0x3f, 0x2e, 0x70, 0x80, 0x3f, 0x00, 0x00, 0x00, 0x00,
  0x00, 0x00, 0x00, 0x00, 0x00, 0x00, 0x00, 0x00, 0x00, 0x00, 0x00, 0x00,
  0x00, 0x00, 0x06, 0x00, 0x08, 0x00, 0x04, 0x00, 0x06, 0x00, 0x00, 0x00,
  0x04, 0x00, 0x00, 0x00, 0x04, 0x00, 0x00, 0x00, 0xc4, 0x44, 0x7d, 0x3f,
  0x00, 0x00, 0x00, 0x00, 0x00, 0x00, 0x00, 0x00, 0x68, 0xfb, 0xff, 0xff,
  0x00, 0x00, 0x00, 0x00, 0x00, 0x00, 0x00, 0x00, 0x00, 0x00, 0x00, 0x00,
  0x78, 0xfb, 0xff, 0xff, 0x00, 0x00, 0x00, 0x00, 0x00, 0x00, 0x00, 0x00,
  0x00, 0x00, 0x00, 0x00, 0x0f, 0x00, 0x00, 0x00, 0x4d, 0x4c, 0x49, 0x52,
  0x20, 0x43, 0x6f, 0x6e, 0x76, 0x65, 0x72, 0x74, 0x65, 0x64, 0x2e, 0x00,
  0x01, 0x00, 0x00, 0x00, 0x14, 0x00, 0x00, 0x00, 0x00, 0x00, 0x0e, 0x00,
  0x18, 0x00, 0x04, 0x00, 0x08, 0x00, 0x0c, 0x00, 0x10, 0x00, 0x14, 0x00,
  0x0e, 0x00, 0x00, 0x00, 0x00, 0x01, 0x00, 0x00, 0xf4, 0x00, 0x00, 0x00,
  0xe8, 0x00, 0x00, 0x00, 0x14, 0x00, 0x00, 0x00, 0x04, 0x00, 0x00, 0x00,
  0x04, 0x00, 0x00, 0x00, 0x6d, 0x61, 0x69, 0x6e, 0x00, 0x00, 0x00, 0x00,
  0x03, 0x00, 0x00, 0x00, 0x90, 0x00, 0x00, 0x00, 0x48, 0x00, 0x00, 0x00,
  0x04, 0x00, 0x00, 0x00, 0xce, 0xff, 0xff, 0xff, 0x00, 0x00, 0x00, 0x08,
  0x18, 0x00, 0x00, 0x00, 0x0c, 0x00, 0x00, 0x00, 0x04, 0x00, 0x00, 0x00,
  0xfc, 0xfb, 0xff, 0xff, 0x01, 0x00, 0x00, 0x00, 0x09, 0x00, 0x00, 0x00,
  0x03, 0x00, 0x00, 0x00, 0x08, 0x00, 0x00, 0x00, 0x06, 0x00, 0x00, 0x00,
  0x01, 0x00, 0x00, 0x00, 0x00, 0x00, 0x0e, 0x00, 0x14, 0x00, 0x00, 0x00,
  0x08, 0x00, 0x0c, 0x00, 0x07, 0x00, 0x10, 0x00, 0x0e, 0x00, 0x00, 0x00,
  0x00, 0x00, 0x00, 0x08, 0x1c, 0x00, 0x00, 0x00, 0x10, 0x00, 0x00, 0x00,
  0x04, 0x00, 0x00, 0x00, 0xba, 0xff, 0xff, 0xff, 0x00, 0x00, 0x00, 0x01,
  0x01, 0x00, 0x00, 0x00, 0x08, 0x00, 0x00, 0x00, 0x03, 0x00, 0x00, 0x00,
  0x07, 0x00, 0x00, 0x00, 0x05, 0x00, 0x00, 0x00, 0x02, 0x00, 0x00, 0x00,
  0x00, 0x00, 0x0e, 0x00, 0x16, 0x00, 0x00, 0x00, 0x08, 0x00, 0x0c, 0x00,
  0x07, 0x00, 0x10, 0x00, 0x0e, 0x00, 0x00, 0x00, 0x00, 0x00, 0x00, 0x08,
  0x24, 0x00, 0x00, 0x00, 0x18, 0x00, 0x00, 0x00, 0x0c, 0x00, 0x00, 0x00,
  0x00, 0x00, 0x06, 0x00, 0x08, 0x00, 0x07, 0x00, 0x06, 0x00, 0x00, 0x00,
  0x00, 0x00, 0x00, 0x01, 0x01, 0x00, 0x00, 0x00, 0x07, 0x00, 0x00, 0x00,
  0x03, 0x00, 0x00, 0x00, 0x00, 0x00, 0x00, 0x00, 0x04, 0x00, 0x00, 0x00,
  0x03, 0x00, 0x00, 0x00, 0x01, 0x00, 0x00, 0x00, 0x09, 0x00, 0x00, 0x00,
  0x01, 0x00, 0x00, 0x00, 0x00, 0x00, 0x00, 0x00, 0x0a, 0x00, 0x00, 0x00,
  0x20, 0x03, 0x00, 0x00, 0xd4, 0x02, 0x00, 0x00, 0x8c, 0x02, 0x00, 0x00,
  0x54, 0x02, 0x00, 0x00, 0x0c, 0x02, 0x00, 0x00, 0xc4, 0x01, 0x00, 0x00,
  0x7c, 0x01, 0x00, 0x00, 0xec, 0x00, 0x00, 0x00, 0x5c, 0x00, 0x00, 0x00,
  0x04, 0x00, 0x00, 0x00, 0x1c, 0xfd, 0xff, 0xff, 0x44, 0x00, 0x00, 0x00,
  0x0a, 0x00, 0x00, 0x00, 0x1c, 0x00, 0x00, 0x00, 0x14, 0x00, 0x00, 0x00,
  0x04, 0x00, 0x00, 0x00, 0x02, 0x00, 0x00, 0x00, 0xff, 0xff, 0xff, 0xff,
  0x01, 0x00, 0x00, 0x00, 0x08, 0xfd, 0xff, 0xff, 0x19, 0x00, 0x00, 0x00,
  0x53, 0x74, 0x61, 0x74, 0x65, 0x66, 0x75, 0x6c, 0x50, 0x61, 0x72, 0x74,
  0x69, 0x74, 0x69, 0x6f, 0x6e, 0x65, 0x64, 0x43, 0x61, 0x6c, 0x6c, 0x3a,
  0x30, 0x00, 0x00, 0x00, 0x02, 0x00, 0x00, 0x00, 0x01, 0x00, 0x00, 0x00,
  0x01, 0x00, 0x00, 0x00, 0x70, 0xfd, 0xff, 0xff, 0x7c, 0x00, 0x00, 0x00,
  0x09, 0x00, 0x00, 0x00, 0x1c, 0x00, 0x00, 0x00, 0x14, 0x00, 0x00, 0x00,
  0x04, 0x00, 0x00, 0x00, 0x02, 0x00, 0x00, 0x00, 0xff, 0xff, 0xff, 0xff,
  0x10, 0x00, 0x00, 0x00, 0x5c, 0xfd, 0xff, 0xff, 0x52, 0x00, 0x00, 0x00,
  0x73, 0x65, 0x71, 0x75, 0x65, 0x6e, 0x74, 0x69, 0x61, 0x6c, 0x5f, 0x31,
  0x2f, 0x64, 0x65, 0x6e, 0x73, 0x65, 0x5f, 0x34, 0x2f, 0x4d, 0x61, 0x74,
  0x4d, 0x75, 0x6c, 0x3b, 0x73, 0x65, 0x71, 0x75, 0x65, 0x6e, 0x74, 0x69,
  0x61, 0x6c, 0x5f, 0x31, 0x2f, 0x64, 0x65, 0x6e, 0x73, 0x65, 0x5f, 0x34,
  0x2f, 0x52, 0x65, 0x6c, 0x75, 0x3b, 0x73, 0x65, 0x71, 0x75, 0x65, 0x6e,
  0x74, 0x69, 0x61, 0x6c, 0x5f, 0x31, 0x2f, 0x64, 0x65, 0x6e, 0x73, 0x65,
  0x5f, 0x34, 0x2f, 0x42, 0x69, 0x61, 0x73, 0x41, 0x64, 0x64, 0x00, 0x00,
  0x02, 0x00, 0x00, 0x00, 0x01, 0x00, 0x00, 0x00, 0x10, 0x00, 0x00, 0x00,
  0xfc, 0xfd, 0xff, 0xff, 0x7c, 0x00, 0x00, 0x00, 0x08, 0x00, 0x00, 0x00,
  0x1c, 0x00, 0x00, 0x00, 0x14, 0x00, 0x00, 0x00, 0x04, 0x00, 0x00, 0x00,
  0x02, 0x00, 0x00, 0x00, 0xff, 0xff, 0xff, 0xff, 0x10, 0x00, 0x00, 0x00,
  0xe8, 0xfd, 0xff, 0xff, 0x52, 0x00, 0x00, 0x00, 0x73, 0x65, 0x71, 0x75,
  0x65, 0x6e, 0x74, 0x69, 0x61, 0x6c, 0x5f, 0x31, 0x2f, 0x64, 0x65, 0x6e,
  0x73, 0x65, 0x5f, 0x33, 0x2f, 0x4d, 0x61, 0x74, 0x4d, 0x75, 0x6c, 0x3b,
  0x73, 0x65, 0x71, 0x75, 0x65, 0x6e, 0x74, 0x69, 0x61, 0x6c, 0x5f, 0x31,
  0x2f, 0x64, 0x65, 0x6e, 0x73, 0x65, 0x5f, 0x33, 0x2f, 0x52, 0x65, 0x6c,
  0x75, 0x3b, 0x73, 0x65, 0x71, 0x75, 0x65, 0x6e, 0x74, 0x69, 0x61, 0x6c,
  0x5f, 0x31, 0x2f, 0x64, 0x65, 0x6e, 0x73, 0x65, 0x5f, 0x33, 0x2f, 0x42,
  0x69, 0x61, 0x73, 0x41, 0x64, 0x64, 0x00, 0x00, 0x02, 0x00, 0x00, 0x00,
  0x01, 0x00, 0x00, 0x00, 0x10, 0x00, 0x00, 0x00, 0xca, 0xfe, 0xff, 0xff,
  0x34, 0x00, 0x00, 0x00, 0x07, 0x00, 0x00, 0x00, 0x0c, 0x00, 0x00, 0x00,
  0x04, 0x00, 0x00, 0x00, 0x64, 0xfe, 0xff, 0xff, 0x1b, 0x00, 0x00, 0x00,
  0x73, 0x65, 0x71, 0x75, 0x65, 0x6e, 0x74, 0x69, 0x61, 0x6c, 0x5f, 0x31,
  0x2f, 0x64, 0x65, 0x6e, 0x73, 0x65, 0x5f, 0x35, 0x2f, 0x4d, 0x61, 0x74,
  0x4d, 0x75, 0x6c, 0x00, 0x02, 0x00, 0x00, 0x00, 0x01, 0x00, 0x00, 0x00,
  0x10, 0x00, 0x00, 0x00, 0x0e, 0xff, 0xff, 0xff, 0x34, 0x00, 0x00, 0x00,
  0x06, 0x00, 0x00, 0x00, 0x0c, 0x00, 0x00, 0x00, 0x04, 0x00, 0x00, 0x00,
  0xa8, 0xfe, 0xff, 0xff, 0x1b, 0x00, 0x00, 0x00, 0x73, 0x65, 0x71, 0x75,
  0x65, 0x6e, 0x74, 0x69, 0x61, 0x6c, 0x5f, 0x31, 0x2f, 0x64, 0x65, 0x6e,
  0x73, 0x65, 0x5f, 0x34, 0x2f, 0x4d, 0x61, 0x74, 0x4d, 0x75, 0x6c, 0x00,
  0x02, 0x00, 0x00, 0x00, 0x10, 0x00, 0x00, 0x00, 0x10, 0x00, 0x00, 0x00,
  0x52, 0xff, 0xff, 0xff, 0x34, 0x00, 0x00, 0x00, 0x05, 0x00, 0x00, 0x00,
  0x0c, 0x00, 0x00, 0x00, 0x04, 0x00, 0x00, 0x00, 0xec, 0xfe, 0xff, 0xff,
  0x1b, 0x00, 0x00, 0x00, 0x73, 0x65, 0x71, 0x75, 0x65, 0x6e, 0x74, 0x69,
  0x61, 0x6c, 0x5f, 0x31, 0x2f, 0x64, 0x65, 0x6e, 0x73, 0x65, 0x5f, 0x33,
  0x2f, 0x4d, 0x61, 0x74, 0x4d, 0x75, 0x6c, 0x00, 0x02, 0x00, 0x00, 0x00,
  0x10, 0x00, 0x00, 0x00, 0x01, 0x00, 0x00, 0x00, 0x96, 0xff, 0xff, 0xff,
  0x28, 0x00, 0x00, 0x00, 0x04, 0x00, 0x00, 0x00, 0x0c, 0x00, 0x00, 0x00,
  0x04, 0x00, 0x00, 0x00, 0x30, 0xff, 0xff, 0xff, 0x0c, 0x00, 0x00, 0x00,
  0x64, 0x65, 0x6e, 0x73, 0x65, 0x5f, 0x33, 0x2f, 0x62, 0x69, 0x61, 0x73,
  0x00, 0x00, 0x00, 0x00, 0x01, 0x00, 0x00, 0x00, 0x10, 0x00, 0x00, 0x00,
  0xca, 0xff, 0xff, 0xff, 0x28, 0x00, 0x00, 0x00, 0x03, 0x00, 0x00, 0x00,
  0x0c, 0x00, 0x00, 0x00, 0x04, 0x00, 0x00, 0x00, 0x64, 0xff, 0xff, 0xff,
  0x0c, 0x00, 0x00, 0x00, 0x64, 0x65, 0x6e, 0x73, 0x65, 0x5f, 0x34, 0x2f,
  0x62, 0x69, 0x61, 0x73, 0x00, 0x00, 0x00, 0x00, 0x01, 0x00, 0x00, 0x00,
  0x10, 0x00, 0x00, 0x00, 0x00, 0x00, 0x0e, 0x00, 0x14, 0x00, 0x04, 0x00,
  0x00, 0x00, 0x08, 0x00, 0x0c, 0x00, 0x10, 0x00, 0x0e, 0x00, 0x00, 0x00,
  0x28, 0x00, 0x00, 0x00, 0x02, 0x00, 0x00, 0x00, 0x0c, 0x00, 0x00, 0x00,
  0x04, 0x00, 0x00, 0x00, 0xa8, 0xff, 0xff, 0xff, 0x0c, 0x00, 0x00, 0x00,
  0x64, 0x65, 0x6e, 0x73, 0x65, 0x5f, 0x35, 0x2f, 0x62, 0x69, 0x61, 0x73,
  0x00, 0x00, 0x00, 0x00, 0x01, 0x00, 0x00, 0x00, 0x01, 0x00, 0x00, 0x00,
  0x14, 0x00, 0x18, 0x00, 0x04, 0x00, 0x00, 0x00, 0x08, 0x00, 0x0c, 0x00,
  0x10, 0x00, 0x00, 0x00, 0x00, 0x00, 0x14, 0x00, 0x14, 0x00, 0x00, 0x00,
  0x4c, 0x00, 0x00, 0x00, 0x01, 0x00, 0x00, 0x00, 0x20, 0x00, 0x00, 0x00,
  0x18, 0x00, 0x00, 0x00, 0x04, 0x00, 0x00, 0x00, 0x02, 0x00, 0x00, 0x00,
  0xff, 0xff, 0xff, 0xff, 0x01, 0x00, 0x00, 0x00, 0x04, 0x00, 0x04, 0x00,
  0x04, 0x00, 0x00, 0x00, 0x1f, 0x00, 0x00, 0x00, 0x73, 0x65, 0x72, 0x76,
  0x69, 0x6e, 0x67, 0x5f, 0x64, 0x65, 0x66, 0x61, 0x75, 0x6c, 0x74, 0x5f,
  0x64, 0x65, 0x6e, 0x73, 0x65, 0x5f, 0x33, 0x5f, 0x69, 0x6e, 0x70, 0x75,
  0x74, 0x3a, 0x30, 0x00, 0x02, 0x00, 0x00, 0x00, 0x01, 0x00, 0x00, 0x00,
  0x01, 0x00, 0x00, 0x00, 0x01, 0x00, 0x00, 0x00, 0x10, 0x00, 0x00, 0x00,
  0x0c, 0x00, 0x10, 0x00, 0x07, 0x00, 0x00, 0x00, 0x08, 0x00, 0x0c, 0x00,
  0x0c, 0x00, 0x00, 0x00, 0x00, 0x00, 0x00, 0x09, 0x09, 0x00, 0x00, 0x00,
  0x09, 0x00, 0x00, 0x00
};

#endif //SRI_H